0001111100000011000000001100000000110000001111110000011100100000110000000011000000001100000001100100
0001111100000011000000001100000000110000001111110000011100100000110000000011000000001100000001100100
0001111100000011000000001100000000110000001111110000011100100000110000000011000000001100000001100100
0001111100000011000000001100000000110000001111110000011100100000110000000011000000001100000001100100
0001111100000011000000001100000000110000001111111000011100100000110000000011000000001100000001100100
0001111100000011000000001100000000110000001111111000011100100000110000000011000000001100000001100100
0001111100000011000000001100000000110000001111111000011100100000110000000011000000001100000001100100
0001111100000011000000001100000000110000001111111000011100100000110000000011000000001100000001100100
0001111100000011000000001100000000110000001111111000011100100000110000000011000000001100000001100100
0001111100000011000000001100000000110000001111111000011100100000110000000011000000001100000001100100
0001111100000011000000001100000000110000001111111000011100100000110000000011000000001100000001100100
0001111100000011000000001100000000110000001111111000011100100000110000000011000000001100000001100100
0001111100000011000000001100000000110000001111111000011100100000110000000011000000001100000001100100
0001111100000011000000001100000000110000001111111000011100100000110000000011000000001100000001100100
0001111100000011000000001100000000110000001111111000011100100000110000000011000000001100000001100100
0001111100000011000000001100000000110000001111111000011100100000110000000011000000001100000001100100
0001111100000011000000001100000000110000001111111000011100100000110000000011000000001100000001100100
0001111100000011000000001100000000110000001111111000011100100000110000000011000000001100000001100100
0001111100000011000000001100000000110000001111111000011100100000110000000011000000001100000001100100
0001111100000011000000001100000000110000001111111000011100100000110000000011000000001100000001100100
0001111100000011000000001100000000110000001111111000011100100000110000000011000000001100000001100100
0001111100000011000000001100000000110000001111111000011100100000110000000011000000001100000001100100
0001111100000011000000001100000000110000001111111000011100100000110000000011000000001100000001110100
0001111100000011000000001100000000110000001111111000011100100000110000000011000000001100000001110100
0001111100000011000000001100000000110000001111111000011100100000110000000011000000001100000001110100
0001111100000011000000001100000000110000001111111000011100100000110000000011000000001100000001110100
0001111100000011000000001100000000110000001111111000011100100000110000000011000000001100000001110100
0001111100000011000000001100000000110000001111111000011100100000110000000011000000001100000001110100
0001111100000011000000001100000000110000001111111000011100100000110000000011000000001100000001110100
0001111100000011000000001100000000110000001111111000011100100000110000000011000000001100000001110100
0001111100000011000000001100000000110000001111111000011100100000110000000011000000001100000001110100
0001111100000011000000001100000000110000001111111000011100100000110000000011000000001100000001110100
0001111100000011000000001100000000110000001111111000011100100000110000000011000000001100000001110100
0001111100000011000000001100000000110000001111111000011100100000110000000011000000001100000001110100
0001111100000011000000001100000000110000001111111000011100100000110000000011000000001100000001110100
0001111100000011000000001100000000110000001111111000011100100000110000000011000000001100000000110100
0001111100000011000000001100000000110000001111111000011100100000110000000011000000001100000000110100
0001111100000011000000001100000000110000001111111000011100100000110000000011000000001100000000110100
0001111100000011000000001100000000110000001111111000011100100000110000000011000000001100000000110100
0001111100000011000000001100000000110000001111111000011100100000110000000011000000001100000000110100
0001111100000011000000001100000000110000001111111000011100100000110000000011000000001100000000110100
0001111100000011000000001100000000110000001111111000011100100000110000000011000000001100000000110100
0001111100000011000000001100000000110000001111111000011100100000110000000011000000001100000000110100
0001111100000011000000001100000000110000001111111000011100100000110000000011000000001100000000110100
0001111100000011000000001100000000110000001111111000011100100000110000000011000000001100000000110100
0001111100000011000000001100000000110000001111111000011100100000110000000011000000001100000000110100
0001111100000011000000001100000000110000001111111000011100100000110000000011000000001100000000110100
0001111100000011000000001100000000110000001111111000011100100000110000000011000000001100000000110100
0001111100000011000000001100000000110000001111111000011100100000110000000011000000001100000000110100
0001111100000011000000001100000000110000001111111000011100100000110000000011000000001100000000110100
0001111100000011000000001100000000110000001111111000011100100000110000000011000000001100000000110100
0001111100000011000000001100000000110000001111111000011100100000110000000011000000001100000000110100
0001111100000011000000001100000000110000001111111000011100100000110000000011000000001100000000110100
0001111100000011000000001100000000110000001111111000011100100000110000000011000000001100000000110100
0001111100000011000000001100000000110000001111111000011100100000110000000011000000001100000000110100
0001111100000011000000001100000000110000001111111000011100100000110000000011000000001100000000110100
0001111100000011000000001100000000110000001111111000011100100000110000000011000000001100000000110100
0001111100000011000000001100000000110000001111111000011100100000110000000011000000001100000000110100
0001111100000011000000001100000000110000001111111000011100100000110000000011000000001100000000110100
0001111100000011000000001100000000110000001111111000011100100000110000000011000000001100000000110100
0001111100000011000000001100000000110000001111111000011100100000110000000011000000001100000000110100
0001111100000011000000001100000000110000001111111000011100100000110000000011000000001100000000110100
0001111100000011000000001100000000110000001111111000011100100000110000000011000000001100000000110100
0001111100000011000000001100000000110000001111111000011100100000110000000011000000001100000000110100
0001111100000011000000001100000000110000001111111000011100100000110000000011000000001100000000110100
0001111100000011000000001100000000110000001111111000011100100000110000000011000000001100000000110100
0001111100000011000000001100000000110000001111111000011100100000110000000011000000001100000000110100
0001111100000011000000001100000000110000001111111000011100100000110000000011000000001100000000110100
0001111100000011000000001100000000110000001111111000011100100000110000000011000000001100000000110100
0001111100000011000000001100000000110000001111111000011100100000110000000011000000001100000000110100
0001111100000011000000001100000000110000001111111000011100100000110000000011000000001100000000110100
0001111100000011000000001100000000110000001111111000011100100000110000000011000000001100000000110100
0001111100000011000000001100000000110000001111111000011100100000110000000011000000001100000000110100
0001111100000011000000001100000000110000001111111000011100100000110000000011000000001100000000110100
0001111100000011000000001100000000110000001111111000011100100000110000000011000000001100000000110100
0001111100000011000000001100000000110000001111111000011100100000110000000011000000001100000000110100
0001111100000011000000001100000000110000001111111000011100100000110000000011000000001100000000110100
0001111100000011000000001100000000110000001111111000011100100000110000000011000000001100000000110100
0001111100000011000000001100000000110000001111111000011100100000110000000011000000001100000000110100
0001111100000011000000001100000000110000001111111000011100100000110000000011000000001100000000110100
0001111100000011000000001100000000110000001111111000011100100000110000000011000000001100000000110100
0001111100000011000000001100000000110000001111111000011100100000110000000011000000001100000000110100
0001111100000011000000001100000000110000001111111000011100100000110000000011000000001100000000110100
0001111100000011000000001100000000110000001111111000011100100000110000000011000000001100000000110100
0001111100000011000000001100000000110000001111111000011100100000110000000011000000001100000000110100
0001111100000011000000001100000000110000001111111000011100100000110000000011000000001100000000110100
0001111100000011000000001100000000110000001111111000011100100000110000000011000000001100000000110100
0001111100000011000000001100000000110000001111111000011100100000110000000011000000001100000000110100
0001111100000011000000001100000000110000001111111000011100100000110000000011000000001100000000110100
0001111100000011000000001100000000110000001111111000011100100000110000000011000000001100000000110100
0001111100000011000000001100000000110000001111111000011100100000110000000011000000001100000000110100
0001111100000011000000001100000000110000001111111000011100100000110000000011000000001100000000110100
0001111100000011000000001100000000110000001111111000011100100000110000000011000000001100000000110100
0001111100000011000000001100000000110000001111111000011100100000110000000011000000001100000000110100
0001111100000011000000001100000000110000001111111000011100100000110000000011000000001100000000110100
0001111100000011000000001100000000110000001111111000011100100000110000000011000000001100000000110100
0001111100000011000000001100000000110000001111111000011100100000110000000011000000001100000000110100
0001111100000011000000001100000000110000001111111000011100100000110000000011000000001100000000110100
0001111100000011000000001100000000110000001111111000011100100000110000000011000000001100000000110100
0001111100000011000000001100000000110000001111111000001100100000110000000011000000001100000000110100
0001111100000011000000001100000000110000001111111000001100100000110000000011000000001100000000110100
0001111100000011000000001100000000110000001111111000001100100000110000000011000000001100000000110100
0001111100000011000000001100000000110000001111111000001100100000110000000011000000001100000000110100
0001111100000011000000001100000000110000001111111000001100100000110000000011000000001100000000110100
0001111100000011000000001100000000110000001111111000001100100000110000000011000000001100000000110100
0001111100000011000000001100000000110000001111111000001100100000110000000011000000001100000000110100
0001111100000011000000001100000000110000001111111000001100100000110000000011000000001100000000110100
0001111100000011000000001100000000110000001111111000001100100000110000000011000000001100000000110100
0001111100000011000000001100000000110000001111111000001100100000110000000011000000001100000000110100
0001111100000011000000001100000000110000001111111000001100100000110000000011000000001100000000110100
0001111100000011000000001100000000110000001111111000001100100000110000000011000000001100000000110100
0001111100000011000000001100000000110000001111111000001100100000110000000011000000001100000000110100
0001111100000011100000001100000000110000001111111000001100100000110000000011000000001100000000110100
0001111100000011100000001100000000110000001111111000001100100000110000000011000000001100000000110100
0001111100000011100000001100000000110000001111111000001100100000110000000011000000001100000000110100
0001111100000011100000001100000000110000001111111000001100100000110000000011000000001100000000110100
0001111100000011100000001100000000110000001111111000001100100000110000000011000000001100000000110100
0001111100000011100000001100000000110000001111111000001100100000110000000011000000001100000000110100
0001111100000011100000001100000000110000001111111000001100100000110000000011000000001100000000110100
0001111100000011100000001100000000110000001111111000001100100000110000000011000000001100000000110100
0001111100000011100000001100000000110000001111111000001100100000110000000011000000001100000000110100
0001111100000011100000001100000000110000001111111000001100100000110000000011000000001100000000110100
0001111100000011100000001100000000110000001111111000001100100000110000000011000000001100000000110100
0001111100000011100000001100000000110000001111111000001100100000110000000011000000001100000000110100
0001111100000011100000001100000000110000001111111000001100100000110000000011000000001100000000110100
0001111100000011100000001100000000110000001111111000001100100000110000000011000000001100000000110100
0001111100000011100000001100000000110000001111111000001100100000110000000011000000001100000000110100
0001111100000011100000001100000000110000001111111000001100100000110000000011000000001100000000110100
0001111100000011100000001100000000110000001111111000001100100000110000000011000000001100000000110100
0001111100000011100000001100000000110000001111111000001100100000110000000011000000001100000000110100
0001111100000011100000001100000000110000001111111000001100100000110000000011000000001100000000110100
0001111100000011100000001100000000110000001111111000001100100000110000000011000000001100000000110100
0001111100000011100000001100000000110000001111111000001100100000110000000011000000001100000000110100
0001111100000011100000001100000000110000001111111000001100100000110000000011000000001100000000110100
0001111100000011100000001100000000110000001111111000001100100000110000000011000000001100000000110100
0001111100000011100000001100000000110000001111111000001100100000110000000011000000001100000000110100
0001111100000011100000001100000000110000001111111000001100100000110000000011000000001100000000110100
0001111100000011100000001100000000110000001111111000001100100000110000000011000000001100000000110100
0001111100000011100000001100000000110000001111111000001100100000110000000011000000001100000000110100
0001111100000011100000001100000000110000001111111000001100100000110000000011000000001100000000110100
0001111100000011100000001100000000110000001111111000001100100000110000000011000000001100000000110100
0001111100000011100000001100000000110000001111111000001100100000110000000011000000001100000000110100
0001111100000011100000001100000000110000001111111000001100100000110000000011000000001100000000110100
0001111100000011100000001100000000110000001111111000001100100000110000000011000000001100000000110100
0001111100000011100000001100000000110000001111111000001100100000110000000011000000001100000000110100
0001111100000011100000001100000000110000001111111000001100100000110000000011000000001100000000110100
0001111100000011100000001100000000110000001111111000001100100000110000000011000000001100000000110100
0001111100000011100000001100000000110000001111111000001100100000110000000011000000001100000000110100
0001111100000011100000001100000000110000001111111000001100100000110000000011000000001100000000110100
0001111100000011100000001100000000110000001111111000001100100000110000000011000000001100000000110100
0001111100000011100000001100000000110000001111111000001100100000110000000011000000001100000000110100
0001111100000011100000001100000000110000001111111000001100100000110000000011000000001100000000110100
0001111100000011100000001100000000110000001111111000001100100000110000000011000000001100000000110100
0001111100000011100000001100000000110000001111111000001100100000110000000011000000001100000000110100
0001111100000011100000001100000000110000001111111000001100100000110000000011000000001100000000110100
0001111100000011100000001100000000110000001111111000001100100000110000000011000000001100000000110100
0001111100000011100000001100000000110000001111111000001100100000110000000011000000001100000000110100
0001111100000011100000001100000000110000001111111000001100100000110000000011000000001100000000110100
0001111100000111100000001100000000110000001111111000001100100000110000000011000000001100000000110100
0001111100000111100000001100000000110000001111111000001100100000110000000011000000001100000000110100
0001111100000111100000001100000000110000001111111000001100100000110000000011000000001100000000110100
0001111100000111100000001100000000110000001111111000001100100000110000000011000000001100000000110100
0001111100000111100000001100000000110000001111111000001100100000110000000011000000001100000000110100
0001111100000111100000001100000000110000001111111000001100100000110000000011000000001100000000110100
0001111100000111100000001100000000110000001111111000001100100000110000000011000000001100000000110100
0001111100000111100000001100000000110000001111111000001100100000110000000011000000001100000000110100
0001111100000111100000001100000000110000001111111000001100100000110000000011000000001100000000110100
0001111100000111100000001100000000110000001111111000001100100000110000000011000000001100000000110000
0001111100000111100000001100000000110000001111111000001100100000110000000011000000001100000000110000
0001111100000111100000001100000000110000001111111000001100100000110000000011000000001100000000110000
0001111100000111100000001100000000110000001111111000001100100000110000000011000000001100000000110000
0001111100000111100000001100000000110000001111111000001100100000110000000011000000001100000000110000
0001111100000111100000001100000000110000001111111000001100100000110000000011000000001100000000110000
0001111100000111100000001100000000110000001111111000001100100000110000000011000000001100000000110000
0001111100000111100000001100000000110000001111111000001100100000110000000011000000001100000000110000
0001111100000111100000001100000000110000001111111000001100100000110000000011000000001100000000110000
0001111100000111100000001100000000110000001111111000001100100000110000000011000000001100000000110000
0001111100000111100000001100000000110000001111111000001100100000110000000011000000001100000000110000
0001111100000111100000001100000000110000001111111000001100100000110000000011000000001100000000110000
0001111100000111100000001100000000110000001111111000001100100000110000000011000000001100000000110000
0001111100000111100000001100000000110000001111111000001100100000110000000011000000001100000000110000
0001111100000111100000001100000000110000001111111000001100100000110000000011000000001100000000110000
0001111100000111100000001100000000110000001111111000001100100000110000000011000000001100000000110000
0001111100000111100000001100000000110000001111111000001100100000110000000011000000001100000000110000
0001111100000111100000001100000000110000001111111000001100100000110000000011000000001100000000110000
0001111100000111100000001100000000110000001111111000001100100000110000000011000000001100000000110000
0001111100000111100000001100000000110000001111111000001100100000110000000011000000001100000000110000
0001111100000111100000001100000000110000001111111000001100100000110000000011000000001100000000110000
0001111100000111100000001100000000110000001111111000001100100000110000000011000000001100000000110000
0001111100000111100000001100000000110000001111111000001100100000110000000011000000001100000000110000
0001111100000111100000001100000000110000001111111000001100100000110000000011000000001100000000110000
0001111100000111100000001100000000110000001111111000001100100000110000000011000000001100000000110000
0001111100000111100000001100000000110000001111111000001100100000110000000011000000001100000000110000
0001111100000111100000001100000000110000001111111000001100100000110000000011000000001100000000110000
0001111100000111100000001100000000110000001111111000001100100000110000000011000000001100000000110000
0001111100000111100000001100000000110000001111111000001100100000110000000011000000001100000000110000
0001111100000111100000001100000000110000001111111000001100100000110000000011000000001100000000110000
0001111100000111100000001100000000110000001111111000001100100000110000000011000000001100000000110000
0001111100000111100000001100000000110000001111111000001100100000110000000011000000001100000000110000
0001111100000111100000001100000000110000001111111000001100100000110000000011000000001100000000110000
0001111100000111100000001100000000110000001111111000001100100000110000000011000000001100000000110000
0001111100000111100000001100000000110000001111111000001100100000110000000011000000001100000000110000
0001111100000111100000001100000000110000001111111000001100100000110000000011000000001100000000110000
0001111100000111100000001100000000110000001111111000001100100000110000000011000000001100000000110000
0001111100000111100000001100000000110000001111111000001100100000110000000011000000001100000000110000
0001111100000111100000001100000000110000001111111000001100100000110000000011000000001100000000110000
0001111100000111100000001100000000110000001111111000001100100000110000000011000000001100000000110000
0001111100000111100000001100000000110000001111111000001100100000110000000011000000001100000000110000
0001111100000111100000001100000000110000001111111000001100100000110000000011000000001100000000110000
0001111100000111100000001100000000110000001111111000001100100000110000000011000000001100000000110000
0001111100000111100000001100000000110000001111111000001100100000110000000011000000001100000000110000
0001111100000111100000001100000000110000001111111000001100100000110000000011000000001100000000110000
0001111000000111100000001100000000110000001111111000001100100000110000000011000000001100000000110000

0001111100000011000000001100000000110000001111110000011100100000110000000011000000001100000001100100
0001111100000011000000001100000000110000001111110000011100100000110000000011000000001100000001100100
0001111100000011000000001100000000110000001111110000011100100000110000000011000000001100000001100100
0001111100000011000000001100000000110000001111110000011100100000110000000011000000001100000001100100
0001111100000011000000001100000000110000001111110000011100100000110000000011000000001100000001100100
0001111100000011000000001100000000110000001111110000011100100000110000000011000000001100000001100100
0001111100000011000000001100000000110000001111110000011100100000110000000011000000001100000001100100
0001111100000011000000001100000000110000001111110000011100100000110000000011000000001100000001100100
0001111100000011000000001100000000110000001111110000011100100000110000000011000000001100000001100100
0001111100000011000000001100000000110000001111110000011100100000110000000011000000001100000001100100
0001111100000011000000001100000000110000001111110000011100100000110000000011000000001100000001100100
0001111100000011000000001100000000110000001111110000011100100000110000000011000000001100000001100100
0001111100000011000000001100000000110000001111110000011100100000110000000011000000001100000001100100
0001111100000011000000001100000000110000001111110000011100100000110000000011000000001100000001100100
0001111100000011000000001100000000110000001111110000011100100000110000000011000000001100000001100100
0001111100000111000000001100000000110000001111110000011100100000110000000011000000001100000001100100
0001111100000111000000001100000000110000001111110000011100100000110000000011000000001100000001100100
0001111100000111000000001100000000110000001111110000011100100000110000000011000000001100000001100100
0001111100000111000000001100000000110000001111110000011100100000110000000011000000001100000001100100
0001111100000111000000001100000000110000001111110000011100100000110000000011000000001100000001100100
0001111100000111000000001100000000110000001111110000011100100000110000000011000000001100000001100100
0001111100000111000000001100000000110000001111110000011100100000110000000011000000001100000001100100
0001111100000111000000001100000000110000001111110000011100100000110000000011000000001100000001100100
0001111100000111000000001100000000110000001111110000011100100000110000000011000000001100000001100100
0001111100000111000000001100000000110000001111110000011100100000110000000011000000001100000001100100
0001111100000111000000001100000000110000001111110000011100100000110000000011000000001100000001100100
0001111100000111000000001100000000110000001111110000011100100000110000000011000000001100000001100100
0001111100000111000000001100000000110000001111110000011100100000110000000011000000001100000001100100
0001111100000111000000001100000000110000001111110000011100100000110000000011000000001100000001100100
0001111100000111000000001100000000110000001111110000011100100000110000000011000000001100000001100100
0001111100000111000000001100000000110000001111110000011100100000110000000011000000001100000001100100
0001111100000111000000001100000000110000001111110000011100100000110000000011000000001100000001100100
0001111100000111000000001100000000110000001111110000011100100000110000000011000000001100000001100100
0001111100000111000000001100000000110000001111110000011100100000110000000011000000001100000001100100
0001111100000111000000001100000000110000001111110000011100100000110000000011000000001100000001100100
0001111100000111000000001100000000110000001111110000011100100000110000000011000000001100000001100100
0001111100000111000000001100000000110000001111110000011100100000110000000011000000001100000001100100
0001111100000111000000001100000000110000001111110000011100100000110000000011000000001100000001100100
0001111100000111000000001100000000110000001111110000011100100000110000000011000000001100000001100100
0001111100000111000000001100000000110000001111110000011100100000110000000011000000001100000001100100
0001111100000111000000001100000000110000001111110000011100100000110000000011000000001100000001100100
0001111100000111000000001100000000110000001111110000011100100000110000000011000000001100000001100100
0001111100000111000000001100000000110000001111110000011100100000110000000011000000001100000001100100
0001111100000111000000001100000000110000001111110000011100100000110000000011000000001100000001110100
0001111100000111000000001100000000110000001111110000011100100000110000000011000000001100000001110100
0001111100000111000000001100000000110000001111110000011100100000110000000011000000001100000001110100
0001111100000111000000001100000000110000001111110000011100100000110000000011000000001100000001110100
0001111100000111000000001100000000110000001111110000011100100000110000000011000000001100000001110100
0001111100000111000000001100000000110000001111110000011100100000110000000011000000001100000001110100
0001111100000111000000001100000000110000001111110000011100100000110000000011000000001100000001110100
0001111100000111000000001100000000110000001111110000011100100000110000000011000000001100000001110100
0001111100000111000000001100000000110000001111110000011100100000110000000011000000001100000001110100
0001111000000111000000001100000000110000001111110000011100100000110000000011000000001100000001110100
0001111000000111000000001100000000110000001111110000011100100000110000000011000000001100000001110100
0001111000000111000000001100000000110000001111110000011100100000110000000011000000001100000001110100
0001111000000111000000001100000000110000001111110000011100100000110000000011000000001100000001110100
0001111000000111000000001100000000110000001111110000011100100000110000000011000000001100000001110100
0001111000000111000000001100000000110000001111110000011100100000110000000011000000001100000001110100
0001111000000111000000001100000000110000001111110000011100100000110000000011000000001100000001110100
0001111000000111000000001100000000110000001111110000011100100000110000000011000000001100000001110100
0001111000000111000000001100000000110000001111110000011100100000110000000011000000001100000001110100
0001111000000111000000001100000000110000001111110000011100100000110000000011000000001100000001110100
0001111000000111000000001100000000110000001111110000011100100000110000000011000000001100000001110100
0001111000000111000000001100000000110000001111110000011100100000110000000011000000001100000001110100
0001111000000111000000001100000000110000001111110000011100100000110000000011000000001100000001110100
0001111000000111000000001100000000110000001111110000011100100000110000000011000000001100000001110100
0001111000000111000000001100000000110000001111110000011100100000110000000011000000001100000001110100
0001111000000111000000001100000000110000001111110000011100100000110000000011000000001100000001110100
0001111000000111000000001100000000110000001111110000011100100000110000000011000000001100000001110100
0001111000000111000000001100000000110000001111110000011100100000110000000011000000001100000001110100
0001111000000111000000001100000000110000001111110000011100100000110000000011000000001100000001110100
0001111000000111000000001100000000110000001111110000011100100000110000000011000000001100000001110100
0001111000000111000000001100000000110000001111110000011100100000110000000011000000001100000001110100
0001111000000111000000001100000000110000001111110000011100100000110000000011000000001100000001110100
0001111000000111000000001100000000110000001111110000011100100000110000000011000000001100000001110100
0001111000000111000000001100000000110000001111110000011100100000110000000011000000001100000000110100
0001111000000111000000001100000000110000001111110000011100100000110000000011000000001100000000110100
0001111000000111000000001100000000110000001111110000011100100000110000000011000000001100000000110100
0001111000000111000000001100000000110000001111110000011100100000110000000011000000001100000000110100
0001111000000111000000001100000000110000001111110000011100100000110000000011000000001100000000110100
0001111000000111000000001100000000110000001111110000011100100000110000000011000000001100000000110100
0001111000000111000000001100000000110000001111110000011100100000110000000011000000001100000000110100
0001111000000111000000001100000000110000001111110000011100100000110000000011000000001100000000110100
0001111000000111000000001100000000110000001111110000011100100000110000000011000000001100000000110100
0001111000000111000000001100000000110000001111110000011100100000110000000011000000001100000000110100
0001111000000111000000001100000000110000001111110000011100100000110000000011000000001100000000110100
0001111000000111000000001100000000110000001111110000011100100000110000000011000000001100000000110100
0001111000000111000000001100000000110000001111110000001100100000110000000011000000001100000000110100
0001111000000111000000001100000000110000001111110000001100100000110000000011000000001100000000110100
0001111000000111000000001100000000110000001111110000001100100000110000000011000000001100000000110100
0001111000000111000000001100000000110000001111110000001100100000110000000011000000001100000000110100
0001111000000111000000001100000000110000001111110000001100100000110000000011000000001100000000110100
0001111000000111000000001100000000110000001111110000001100100000110000000011000000001100000000110100
0001111000000111000000001100000000110000001111110000001100100000110000000011000000001100000000110100
0001111000000111000000001100000000110000001111110000001100100000110000000011000000001100000000110100
0001111000000111000000001100000000110000001111110000001100100000110000000011000000001100000000110100
0001111000000111000000001100000000110000001111110000001100100000110000000011000000001100000000110100
0001111000000111000000001100000000110000001111110000001100100000110000000011000000001100000000110100
0001111000000111000000001100000000110000001111110000001100100000110000000011000000001100000000110100
0001111000000111000000001100000000110000001111110000001100100000110000000011000000001100000000110100
0001111000000111000000001100000000110000001111110000001100100000110000000011000000001100000000110100
0001111000000111000000001100000000110000001111110000001100100000110000000011000000001100000000110100
0001111000000111000000001100000000110000001111110000001100100000110000000011000000001100000000110100
0001111000000111000000001100000000110000001111111000001100100000110000000011000000001100000000110100
0001111000000111000000001100000000110000001111111000001100100000110000000011000000001100000000110100
0001111000000111000000001100000000110000001111111000001100100000110000000011000000001100000000110100
0001111000000111000000001100000000110000001111111000001100100000110000000011000000001100000000110100
0001111000000111000000001100000000110000001111111000001100100000110000000011000000001100000000110100
0001111000000111000000001100000000110000001111111000001100100000110000000011000000001100000000110100
0001111000000111000000001100000000110000001111111000001100100000110000000011000000001100000000110100
0001111000000111000000001100000000110000001111111000001100100000110000000011000000001100000000110100
0001111000000111000000001100000000110000001111111000001100100000110000000011000000001100000000110100
0001111000000111000000001100000000110000001111111000001100100000110000000011000000001100000000110100
0001111000000111000000001100000000110000001111111000001100100000110000000011000000001100000000110100
0001111000000111000000001100000000110000001111111000001100100000110000000011000000001100000000110100
0001111000000111000000001100000000110000001111111000001100100000110000000011000000001100000000110100
0001111000000111000000001100000000110000001111111000001100100000110000000011000000001100000000110100
0001111000000111000000001100000000110000001111111000001100100000110000000011000000001100000000110100
0001111000000111000000001100000000110000001111111000001100100000110000000011000000001100000000110100
0001111000000111000000001100000000110000001111111000001100100000110000000011000000001100000000110100
0001111000000111000000001100000000110000001111111000001100100000110000000011000000001100000000110100
0001111000000111000000001100000000110000001111111000001100100000110000000011000000001100000000110100
0001111000000111000000001100000000110000001111111000001100100000110000000011000000001100000000110100
0001111000000111000000001100000000110000001111111000001100100000110000000011000000001100000000110100
0001111000000111000000001100000000110000001111111000001100100000110000000011000000001100000000110100
0001111000000111000000001100000000110000001111111000001100100000110000000011000000001100000000110100
0001111000000111000000001100000000110000001111111000001100100000110000000011000000001100000000110100
0001111000000111000000001100000000110000001111111000001100100000110000000011000000001100000000110100
0001111000000111000000001100000000110000001111111000001100100000110000000011000000001100000000110100
0001111000000111000000001100000000110000001111111000001100100000110000000011000000001100000000110100
0001111000000111000000001100000000110000001111111000001100100000110000000011000000001100000000110100
0001111000000111000000001100000000110000001111111000001100100000110000000011000000001100000000110100
0001111000000111000000001100000000110000001111111000001100100000110000000011000000001100000000110100
0001111000000111000000001100000000110000001111111000001100100000110000000011000000001100000000110100
0001111000000111000000001100000000110000001111111000001100100000110000000011000000001100000000110100
0001111000000111000000001100000000110000001111111000001100100000110000000011000000001100000000110100
0001111000000111000000001100000000110000001111111000001100100000110000000011000000001100000000110100
0001111000000111000000001100000000110000001111111000001100100000110000000011000000001100000000110100
0001111000000111000000001100000000110000001111111000001100100000110000000011000000001100000000110100
0001111000000111000000001100000000110000001111111000001100100000110000000011000000001100000000110100
0001111000000111000000001100000000110000001111111000001100100000110000000011000000001100000000110100
0001111000000111000000001100000000110000001111111000001100100000110000000011000000001100000000110100
0001111000000111000000001100000000110000001111111000001100100000110000000011000000001100000000110100
0001111000000111000000001100000000110000001111111000001100100000110000000011000000001100000000110100
0001111000000111000000001100000000110000001111111000001100100000110000000011000000001100000000110100
0001111000000111000000001100000000110000001111111000001100100000110000000011000000001100000000110100
0001111000000111000000001100000000110000001111111000001100100000110000000011000000001100000000110100
0001111000000111000000001100000000110000001111111000001100100000110000000011000000001100000000110100
0001111000000111000000001100000000110000001111111000001100100000110000000011000000001100000000110100
0001111000000111000000001100000000110000001111111000001100100000110000000011000000001100000000110100
0001111000000111000000001100000000110000001111111000001100100000110000000011000000001100000000110100
0001111000000111000000001100000000110000001111111000001100100000110000000011000000001100000000110100
0001111000000111000000001100000000110000001111111000001100100000110000000011000000001100000000110100
0001111000000111000000001100000000110000001111111000001100100000110000000011000000001100000000110100
0001111000000111000000001100000000110000001111111000001100100000110000000011000000001100000000110100
0001111000000111000000001100000000110000001111111000001100100000110000000011000000001100000000110100
0001111000000111000000001100000000110000001111111000001100100000110000000011000000001100000000110100
0001111000000111000000001100000000110000001111111000001100100000110000000011000000001100000000110100
0001111000000111000000001100000000110000001111111000001100100000110000000011000000001100000000110100
0001111000000111000000001100000000110000001111111000001100100000110000000011000000001100000000110100
0001111000000111000000001100000000110000001111111000001100100000110000000011000000001100000000110100
0001111000000111000000001100000000110000001111111000001100100000110000000011000000001100000000110100
0001111000000111000000001100000000110000001111111000001100100000110000000011000000001100000000110100
0001111000000111000000001100000000110000001111111000001100100000110000000011000000001100000000110100
0001111000000111000000001100000000110000001111111000001100100000110000000011000000001100000000110100
0001111000000111000000001100000000110000001111111000001100100000110000000011000000001100000000110100
0001111000000111000000001100000000110000001111111000001100100000110000000011000000001100000000110100
0001111000000111000000001100000000110000001111111000001100100000110000000011000000001100000000110100
0001111000000111000000001100000000110000001111111000001100100000110000000011000000001100000000110100
0001111000000111000000001100000000110000001111111000001100100000110000000011000000001100000000110100
0001111000000111000000001100000000110000001111111000001100100000110000000011000000001100000000110100
0001111000000111000000001100000000110000001111111000001100100000110000000011000000001100000000110100
0001111000000111000000001100000000110000001111111000001100100000110000000011000000001100000000110100
0001111000000111000000001100000000110000001111111000001100100000110000000011000000001100000000110100
0001111000000111000000001100000000110000001111111000001100100000110000000011000000001100000000110100
0001111000000111000000001100000000110000001111111000001100100000110000000011000000001100000000110100
0001111000000111000000001100000000110000001111111000001100100000110000000011000000001100000000110100
0001111000000111000000001100000000110000001111111000001100100000110000000011000000001100000000110100
0001111000000111000000001100000000110000001111111000001100100000110000000011000000001100000000110100
0001111000000111000000001100000000110000001111111000001100100000110000000011000000001100000000110100
0001111000000111000000001100000000110000001111111000001100100000110000000011000000001100000000110100
0001111000000111000000001100000000110000001111111000001100100000110000000011000000001100000000110100
0001111000000111000000001100000000110000001111111000001100100000110000000011000000001100000000110100
0001111000000111000000001100000000110000001111111000001100100000110000000011000000001100000000110100
0001111000000111000000001100000000110000001111111000001100100000110000000011000000001100000000110100
0001111000000111000000001100000000110000001111111000001100100000110000000011000000001100000000110100
0001111000000111000000001100000000110000001111111000001100100000110000000011000000001100000000110100
0001111000000111000000001100000000110000001111111000001100100000110000000011000000001100000000110100
0001111000000111000000001100000000110000001111111000001100100000110000000011000000001100000000110100
0001111000000111000000001100000000110000001111111000001100100000110000000011000000001100000000110100
0001111000000111000000001100000000110000001111111000001100100000110000000011000000001100000000110100
0001111000000111000000001100000000110000001111111000001100100000110000000011000000001100000000110100
0001111000000111000000001100000000110000001111111000001100100000110000000011000000001100000000110100
0001111000000111000000001100000000110000001111111000001100100000110000000011000000001100000000110100
0001111000000111000000001100000000110000001111111000001100100000110000000011000000001100000000110100
0001111000000111000000001100000000110000001111111000001100100000110000000011000000001100000000110100
0001111000000111000000001100000000110000001111111000001100100000110000000011000000001100000000110100
0001111000000111000000001100000000110000001111111000001100100000110000000011000000001100000000110100
0001111000000111000000001100000000110000001111111000001100100000110000000011000000001100000000110100
0001111000000111000000001100000000110000001111111000001100100000110000000011000000001100000000110100
0001111000000111000000001100000000110000001111111000001100100000110000000011000000001100000000110000
0001111000000111000000001100000000110000001111111000001100100000110000000011000000001100000000110000
0001111000000111000000001100000000110000001111111000001100100000110000000011000000001100000000110000
0001111000000111000000001100000000110000001111111000001100100000110000000011000000001100000000110000
0001111000000111000000001100000000110000001111111000001100100000110000000011000000001100000000110000
0001111000000111000000001100000000110000001111111000001100100000110000000011000000001100000000110000
0001111000000111000000001100000000110000001111111000001100100000110000000011000000001100000000110000
0001111000000111000000001100000000110000001111111000001100100000110000000011000000001100000000110000
0001111000000111000000001100000000110000001111111000001100100000110000000011000000001100000000110000
0001111000000111000000001100000000110000001111111000001100100000110000000011000000001100000000110000
0001111000000111000000001100000000110000001111111000001100100000110000000011000000001100000000110000
0001111000000111000000001100000000110000001111111000001100100000110000000011000000001100000000110000
0001111000000111000000001100000000110000001111111000001100100000110000000011000000001100000000110000
0001111000000111000000001100000000110000001111111000001100100000110000000011000000001100000000110000
0001111000000111000000001100000000110000001111111000001100100000110000000011000000001100000000110000
0001111000000111000000001100000000110000001111111000001100100000110000000011000000001100000000110000
0001111000000111000000001100000000110000001111111000001100100000110000000011000000001100000000110000
0001111000000111000000001100000000110000001111111000001100100000110000000011000000001100000000110000
0001111000000111000000001100000000110000001111111000001100100000110000000011000000001100000000110000
0001111000000111000000001100000000110000001111111000001100100000110000000011000000001100000000110000
0001111000000111000000001100000000110000001111111000001100100000110000000011000000001100000000110000
0001111000000111000000001100000000110000001111111000001100100000110000000011000000001100000000110000
0001111000000111000000001100000000110000001111111000001100100000110000000011000000001100000000110000
0001111000000111000000001100000000110000001111111000001100100000110000000011000000001100000000110000
0001111000000111000000001100000000110000001111111000001100100000110000000011000000001100000000110000
0001111000000111000000001100000000110000001111111000001100100000110000000011000000001100000000110000
0001111000000111000000001100000000110000001111111000001100100000110000000011000000001100000000110000
0001111000000111000000001100000000110000001111111000001100100000110000000011000000001100000000110000
0001111000000111000000001100000000110000001111111000001100100000110000000011000000001100000000110000
0001111000000111000000001100000000110000001111111000001100100000110000000011000000001100000000110000
0001111000000111000000001100000000110000001111111000001100100000110000000011000000001100000000110000
0001111000000111000000001100000000110000001111111000001100100000110000000011000000001100000000110000
0001111000000111000000001100000000110000001111111000001100100000110000000011000000001100000000110000
0001111000000111000000001100000000110000001111111000001100100000110000000011000000001100000000110000
0001111000000111000000001100000000110000001111111000001100100000110000000011000000001100000000110000
0001111000000111000000001100000000110000001111111000001100100000110000000011000000001100000000110000
0001111000000111000000001100000000110000001111111000001100100000110000000011000000001100000000110000
0001111000000111000000001100000000110000001111111000001100100000110000000011000000001100000000110000
0001111000000111000000001100000000110000001111111000001100100000110000000011000000001100000000110000
0001111000000111000000001100000000110000001111111000001100100000110000000011000000001100000000110000
0001111000000111000000001100000000110000001111111000001100100000110000000011000000001100000000110000
0001111000000111000000001100000000110000001111111000001100100000110000000011000000001100000000110000
0001111000000111000000001100000000110000001111111000001100100000110000000011000000001100000000110000
0001111000000111000000001100000000110000001111111000001100100000110000000011000000001100000000110000
0001111000000111000000001100000000110000001111111000001100100000110000000011000000001100000000110000
0001111000000111000000001100000000110000001111111000001100100000110000000011000000001100000000110000
0001111000000111000000001100000000110000001111111000001100100000110000000011000000001100000000110000
0001111000000111000000001100000000110000001111111000001100100000110000000011000000001100000000110000
0001111000000111000000001100000000110000001111111000001100100000110000000011000000001100000000110000
0001111000000111000000001100000000110000001111111000001100100000110000000011000000001100000000110000
0001111000000111000000001100000000110000001111111000001100100000110000000011000000001100000000110000
0001111000000111000000001100000000110000001111111000001100100000110000000011000000001100000000110000
0001111000000111000000001100000000110000001111111000001100100000110000000011000000001100000000110000
0001111000000111000000001100000000110000001111111000001100100000110000000011000000001100000000110000
0001111000000111000000001100000000110000001111111000001100100000110000000011000000001100000000110000
0001111000000111000000001100000000110000001111111000001100100000110000000011000000001100000000110000
0001111000000111000000001100000000110000001111111000001100100000110000000011000000001100000000110000
0001111000000111000000001100000000110000001111111000001100100000110000000011000000001100000000110000
0001111000000111000000001100000000110000001111111000001100100000110000000011000000001100000000110000
0001111000000111000000001100000000110000001111111000001100100000110000000011000000001100000000110000
0001111000000111000000001100000000110000001111111000001100100000110000000011000000001100000000110000
0001111000000111000000001100000000110000001111111000001100100000110000000011000000001100000000110000
0001111000000111000000001100000000110000001111111000001100100000110000000011000000001100000000110000
0001111000000111000000001100000000110000001111111000001100100000110000000011000000001100000000110000
0001111000000111000000001100000000110000001111111000001100100000110000000011000000001100000000110000
0001111000000111000000001100000000110000001111111000001100100000110000000011000000001100000000110000
0001111000000111000000001100000000110000001111111000001100100000110000000011000000001100000000110000
0001111000000111000000001100000000110000001111111000001100100000110000000011000000001100000000110000
0001111000000111000000001100000000110000001111111000001100100000110000000011000000001100000000110000
0001111000000111000000001100000000110000001111111000001100100000110000000011000000001100000000110000
0001111000000111000000001100000000110000001111111000001100100000110000000011000000001100000000110000
0001111000000111000000001100000000110000001111111000001100100000110000000011000000001100000000110000
0001111000000111000000001100000000110000001111111000001100100000110000000011000000001100000000110000
0001111000000111000000001100000000110000001111111000001100100000110000000011000000001100000000110000
0001111000000111000000001100000000110000001111111000001100100000110000000011000000001100000000110000
0001111000000111000000001100000000110000001111111000001100100000110000000011000000001100000000110000
0001111000000111000000001100000000110000001111111000001100100000110000000011000000001100000000110000
0001111000000111000000001100000000110000001111111000001100100000110000000011000000001100000000110000
0001111000000111000000001100000000110000001111111000001100100000110000000011000000001100000000110000
0001111000000111000000001100000000110000001111111000001100100000110000000011000000001100000000110000
0001111000000111000000001100000000110000001111111000001100100000110000000011000000001100000000110000
0001111000000111000000001100000000110000001111111000001100100000110000000011000000001100000000110000
0001111000000111000000001100000000110000001111111000001100100000110000000011000000001100000000110000
0001111000000111000000001100000000110000001111111000001100100000110000000011000000001100000000110000
0001111000000111000000001100000000110000001111111000001100100000110000000011000000001100000000110000
0001111000000111000000001100000000110000001111111000001100100000110000000011000000001100000000110000
0001111000000111000000001100000000110000001111111000001100100000110000000011000000001100000000110000
0001111000000111000000001100000000110000001111111000001100100000110000000011000000001100000000110000
0001111000000111000000001100000000110000001111111000001100100000110000000011000000001100000000110000
0001111000000111000000001100000000110000001111111000001100100000110000000011000000001100000000110000
0001111000000111000000001100000000110000001111111000001100100000110000000011000000001100000000110000
0001111000000111000000001100000000110000001111111000001100100000110000000011000000001100000000110000
0001111000000111000000001100000000110000001111111000001100100000110000000011000000001100000000110000
0001111000000111000000001100000000110000001111111000001100100000110000000011000000001100000000110000
0001111000000111000000001100000000110000001111111000001100100000110000000011000000001100000000110000
0001111000000111000000001100000000110000001111111000001100100000110000000011000000001100000000110000
0001111000000111000000001100000000110000001111111000001100100000110000000011000000001100000000110000
0001111000000111000000001100000000110000001111111000001100100000110000000011000000001100000000110000
0001111000000111000000001100000000110000001111111000001100100000110000000011000000001100000000110000
0001111000000111000000001100000000110000001111111000001100100000110000000011000000001100000000110000
0001111000000111000000001100000000110000001111111000001100100000110000000011000000001100000000110000
0001111000000111000000001100000000110000001111111000001100100000110000000011000000001100000000110000
0001111000000111000000001100000000110000001111111000001100100000110000000011000000001100000000110000
0001111000000111000000001100000000110000001111111000001100100000110000000011000000001100000000110000
0001111000000111000000001100000000110000001111111000001100100000110000000011000000001100000000110000
0001111000000111000000001100000000110000001111111000001100100000110000000011000000001100000000110000
0001111000000111000000001100000000110000001111111000001100100000110000000011000000001100000000110000
0001111000000111000000001100000000110000001111111000001100100000110000000011000000001100000000110000
0001111000000111000000001100000000110000001111111000001100100000110000000011000000001100000000110000
0001111000000111000000001100000000110000001111111000001100100000110000000011000000001100000000110000
0001111000000111000000001100000000110000001111111000001100100000110000000011000000001100000000110000
0001111000000111000000001100000000110000001111111000001100100000110000000011000000001100000000110000
0001111000000111000000001100000000110000001111111000001100100000110000000011000000001100000000110000
0001111000000111000000001100000000110000001111111000001100100000110000000011000000001100000000110000
0001111000000111000000001100000000110000001111111000001100100000110000000011000000001100000000110000
0001111000000111000000001100000000110000001111111000001100100000110000000011000000001100000000110000
0001111000000111000000001100000000110000001111111000001100100000110000000011000000001100000000110000
0001111000000111000000001100000000110000001111111000001100100000110000000011000000001100000000110000
0001111000000111000000001100000000110000001111111000001100100000110000000011000000001100000000110000
0001111000000111000000001100000000110000001111111000001100100000110000000011000000001100000000110000
0001111000000111000000001100000000110000001111111000001100100000110000000011000000001100000000110000
0001111000000111000000001100000000110000001111111000001100100000110000000011000000001100000000110000
0001111000000111000000001100000000110000001111111000001100100000110000000011000000001100000000110000
0001111000000111000000001100000000110000001111111000001100100000110000000011000000001100000000110000
0001111000000111000000001100000000110000001111111000001100100000110000000011000000001100000000110000
0001111000000111000000001100000000110000001111111000001100100000110000000011000000001100000000110000
0001111000000111000000001100000000110000001111111000001100100000110000000011000000001100000000110000
0001111000000111000000001100000000110000001111111000001100100000110000000011000000001100000000110000
0001111000000111000000001100000000110000001111111000001100100000110000000011000000001100000000110000
0001111000000111000000001100000000110000001111111000001100100000110000000011000000001100000000110000
0001111000000111000000001100000000110000001111111000001100100000110000000011000000001100000000110000
0001111000000111000000001100000000110000001111111000001100100000110000000011000000001100000000110000
0001111000000111000000001100000000110000001111111000001100100000110000000011000000001100000000110000
0001111000000111000000001100000000110000001111111000001100100000110000000011000000001100000000110000
0001111000000111000000001100000000110000001111111000001100100000110000000011000000001100000000110000
0001111000000111000000001100000000110000001111111000001100100000110000000011000000001100000000110000
0001111000000111000000001100000000110000001111111000001100100000110000000011000000001100000000110000
0001111000000111000000001100000000110000001111111000001100100000110000000011000000001100000000110000
0001111000000111000000001100000000110000001111111000001100100000110000000011000000001100000000110000
0001111000000111000000001100000000110000001111111000001100100000110000000011000000001100000000110000
0001111000000111000000001100000000110000001111111000001100100000110000000011000000001100000000110000
0001111000000111000000001100000000110000001111111000001100100000110000000011000000001100000000110000
0001111000000111000000001100000000110000001111111000001100100000110000000011000000001100000000110000
0001111000000111000000001100000000110000001111111000001100100000110000000011000000001100000000110000
0001111000000111000000001100000000110000001111111000001100100000110000000011000000001100000000110000
0001111000000111000000001100000000110000001111111000001100100000110000000011000000001100000000110000
0001111000000111000000001100000000110000001111111000001100100000110000000011000000001100000000110000
0001111000000111000000001100000000110000001111111000001100100000110000000011000000001100000000110000
0001111000000111000000001100000000110000001111111000001100100000110000000011000000001100000000110000
0001111000000111000000001100000000110000001111111000001100100000110000000011000000001100000000110000
0001111000000111000000001100000000110000001111111000001100100000110000000011000000001100000000110000
0001111000000111100000001100000000110000001111111000001100100000110000000011000000001100000000110000

0001111100000011000000001100000000110000001111110000011100100000110000000011000000001100000001100100
0001111100000011000000001100000000110000001111110000011100100000110000000011000000001100000001100100
0001111100000011000000001100000000110000001111110000011100100000110000000011000000001100000001100100
0001111100000011000000001100000000110000001111110000011100100000110000000011000000001100000001100100
0001111100000011000000001100000000110000001111110000011100100000110000000011000000001100000001100100
0001111100000011000000001100000000110000001111110000011100100000110000000011000000001100000001100100
0001111100000011000000001100000000110000001111110000011100100000110000000011000000001100000001100100
0001111100000011000000001100000000110000001111110000011100100000110000000011000000001100000001100100
0001111100000011000000001100000000110000001111110000011100100000110000000011000000001100000001100100
0001111100000011000000001100000000110000001111110000011100100000110000000011000000001100000001100100
0001111100000011000000001100000000110000001111110000011100100000110000000011000000001100000001100100
0001111100000011000000001100000000110000001111110000011100100000110000000011000000001100000001100100
0001111100000011000000001100000000110000001111110000011100100000110000000011000000001100000001100100
0001111100000011000000001100000000110000001111110000011100100000110000000011000000001100000001100100
0001111100000011000000001100000000110000001111110000011100100000110000000011000000001100000001100100
0001111100000011000000001100000000110000001111110000011100100000110000000011000000001100000001100100
0001111100000011000000001100000000110000001111110000011100100000110000000011000000001100000001100100
0001111100000011000000001100000000110000001111110000011100100000110000000011000000001100000001100100
0001111100000011000000001100000000110000001111110000011100100000110000000011000000001100000001100100
0001111100000011000000001100000000110000001111110000011100100000110000000011000000001100000001100100
0001111100000011100000001100000000110000001111110000011100100000110000000011000000001100000001100100
0001111100000011100000001100000000110000001111110000011100100000110000000011000000001100000001100100
0001111100000011100000001100000000110000001111110000011100100000110000000011000000001100000001100100
0001111100000011100000001100000000110000001111110000011100100000110000000011000000001100000001100100
0001111100000011100000001100000000110000001111110000011100100000110000000011000000001100000001100100
0001111100000011100000001100000000110000001111110000011100100000110000000011000000001100000001100100
0001111100000011100000001100000000110000001111110000011100100000110000000011000000001100000001100100
0001111100000011100000001100000000110000001111110000011100100000110000000011000000001100000001100100
0001111100000011100000001100000000110000001111110000011100100000110000000011000000001100000001100100
0001111000000011100000001100000000110000001111110000011100100000110000000011000000001100000001100100
0001111000000011100000001100000000110000001111110000011100100000110000000011000000001100000001100100
0001111000000011100000001100000000110000001111111000011100100000110000000011000000001100000001100100
0001111000000011100000001100000000110000001111111000011100100000110000000011000000001100000001100100
0001111000000011100000001100000000110000001111111000011100100000110000000011000000001100000001100100
0001111000000011100000001100000000110000001111111000011100100000110000000011000000001100000001100100
0001111000000011100000001100000000110000001111111000011100100000110000000011000000001100000001100100
0001111000000011100000001100000000110000001111111000011100100000110000000011000000001100000001100100
0001111000000011100000001100000000110000001111111000011100100000110000000011000000001100000001100100
0001111000000011100000001100000000110000001111111000011100100000110000000011000000001100000001100100
0001111000000011100000001100000000110000001111111000011100100000110000000011000000001100000001100100
0001111000000011100000001100000000110000001111111000011100100000110000000011000000001100000001100100
0001111000000011100000001100000000110000001111111000011100100000110000000011000000001100000001100100
0001111000000011100000001100000000110000001111111000011100100000110000000011000000001100000001100100
0001111000000011100000001100000000110000001111111000011100100000110000000011000000001100000001100100
0001111000000011100000001100000000110000001111111000011100100000110000000011000000001100000001100100
0001111000000011100000001100000000110000001111111000011100100000110000000011000000001100000001100100
0001111000000011100000001100000000110000001111111000011100100000110000000011000000001100000001100100
0001111000000011100000001100000000110000001111111000011100100000110000000011000000001100000001100000
0001111000000011100000001100000000110000001111111000011100100000110000000011000000001100000001100000
0001111000000011100000001100000000110000001111111000011100100000110000000011000000001100000001100000
0001111000000011100000001100000000110000001111111000011100100000110000000011000000001100000001100000
0001111000000011100000001100000000110000001111111000011100100000110000000011000000001100000001100000
0001111000000011100000001100000000110000001111111000011100100000110000000011000000001100000001100000
0001111000000011100000001100000000110000001111111000011100100000110000000011000000001100000001100000
0001111000000011100000001100000000110000001111111000011100100000110000000011000000001100000001100000
0001111000000011100000001100000000110000001111111000011100100000110000000011000000001100000001100000
0001111000000011100000001100000000110000001111111000011100100000110000000011000000001100000001100000
0001111000000111100000001100000000110000001111111000011100100000110000000011000000001100000001100000
0001111000000111100000001100000000110000001111111000011100100000110000000011000000001100000001100000
0001111000000111100000001100000000110000001111111000011100100000110000000011000000001100000001100000
0001111000000111100000001100000000110000001111111000011100100000110000000011000000001100000001100000
0001111000000111100000001100000000110000001111111000011100100000110000000011000000001100000001100000
0001111000000111100000001100000000110000001111111000011100100000110000000011000000001100000001100000
0001111000000111100000001100000000110000001111111000011100100000110000000011000000001100000001100000
0001111000000111100000001100000000110000001111111000011100100000110000000011000000001100000001100000
0001111000000111100000001100000000110000001111111000011100100000110000000011000000001100000001100000
0001111000000111100000001100000000110000001111111000011100100000110000000011000000001100000001100000
0001111000000111100000001100000000110000001111111000011100100000110000000011000000001100000001100000
0001111000000111100000001100000000110000001111111000011100100000110000000011000000001100000001100000
0001111000000111100000001100000000110000001111111000011100100000110000000011000000001100000001100000
0001111000000111100000001100000000110000001111111000011100100000110000000011000000001100000001100000
0001111000000111100000001100000000110000001111111000011100100000110000000011000000001100000001100000
0001111000000111100000001100000000110000001111111000011100100000110000000011000000001100000001100000
0001111000000111100000001100000000110000001111111000011100100000110000000011000000001100000001100000
0001111000000111100000001100000000110000001111111000011100100000110000000011000000001100000001100000
0001111000000111100000001100000000110000001111111000011100100000110000000011000000001100000001100000
0001111000000111100000001100000000110000001111111000011100100000110000000011000000001100000001110000
0001111000000111100000001100000000110000001111111000011100100000110000000011000000001100000001110000
0001111000000111100000001100000000110000001111111000011100100000110000000011000000001100000001110000
0001111000000111100000001100000000110000001111111000011100100000110000000011000000001100000001110000
0001111000000111100000001100000000110000001111111000011100100000110000000011000000001100000001110000
0001111000000111100000001100000000110000001111111000011100100000110000000011000000001100000001110000
0001111000000111100000001100000000110000001111111000011100100000110000000011000000001100000001110000
0001111000000111100000001100000000110000001111111000011100100000110000000011000000001100000001110000
0001111000000111100000001100000000110000001111111000011100100000110000000011000000001100000001110000
0001111000000111100000001100000000110000001111111000011100100000110000000011000000001100000001110000
0001111000000111100000001100000000110000001111111000011100100000110000000011000000001100000001110000
0001111000000111100000001100000000110000001111111000011100100000110000000011000000001100000001110000
0001111000000111100000001100000000110000001111111000011100100000110000000011000000001100000001110000
0001111000000111100000001100000000110000001111111000011100100000110000000011000000001100000001110000
0001111000000111100000001100000000110000001111111000011100100000110000000011000000001100000001110000
0001111000000111100000001100000000110000001111111000011100100000110000000011000000001100000001110000
0001111000000111100000001100000000110000001111111000011100100000110000000011000000001100000001110000
0001111000000111100000001100000000110000001111111000011100100000110000000011000000001100000001110000
0001111000000111100000001100000000110000001111111000011100100000110000000011000000001100000001110000
0001111000000111100000001100000000110000001111111000011100100000110000000011000000001100000001110000
0001111000000111100000001100000000110000001111111000011100100000110000000011000000001100000001110000
0001111000000111100000001100000000110000001111111000011100100000110000000011000000001100000001110000
0001111000000111100000001100000000110000001111111000011100100000110000000011000000001100000001110000
0001111000000111100000001100000000110000001111111000011100100000110000000011000000001100000001110000
0001111000000111100000001100000000110000001111111000011100100000110000000011000000001100000001110000
0001111000000111100000001100000000110000001111111000011100100000110000000011000000001100000001110000
0001111000000111100000001100000000110000001111111000011100100000110000000011000000001100000001110000
0001111000000111100000001100000000110000001111111000011100100000110000000011000000001100000001110000
0001111000000111100000001100000000110000001111111000011100100000110000000011000000001100000001110000
0001111000000111100000001100000000110000001111111000011100100000110000000011000000001100000001110000
0001111000000111100000001100000000110000001111111000011100100000110000000011000000001100000001110000
0001111000000111100000001100000000110000001111111000011100100000110000000011000000001100000001110000
0001111000000111100000001100000000110000001111111000011100100000110000000011000000001100000001110000
0001111000000111100000001100000000110000001111111000011100100000110000000011000000001100000001110000
0001111000000111100000001100000000110000001111111000011100100000110000000011000000001100000001110000
0001111000000111100000001100000000110000001111111000001100100000110000000011000000001100000001110000
0001111000000111100000001100000000110000001111111000001100100000110000000011000000001100000001110000
0001111000000111100000001100000000110000001111111000001100100000110000000011000000001100000001110000
0001111000000111100000001100000000110000001111111000001100100000110000000011000000001100000001110000
0001111000000111100000001100000000110000001111111000001100100000110000000011000000001100000001110000
0001111000000111100000001100000000110000001111111000001100100000110000000011000000001100000001110000
0001111000000111100000001100000000110000001111111000001100100000110000000011000000001100000001110000
0001111000000111100000001100000000110000001111111000001100100000110000000011000000001100000001110000
0001111000000111100000001100000000110000001111111000001100100000110000000011000000001100000001110000
0001111000000111100000001100000000110000001111111000001100100000110000000011000000001100000001110000
0001111000000111100000001100000000110000001111111000001100100000110000000011000000001100000001110000
0001111000000111100000001100000000110000001111111000001100100000110000000011000000001100000001110000
0001111000000111100000001100000000110000001111111000001100100000110000000011000000001100000001110000
0001111000000111100000001100000000110000001111111000001100100000110000000011000000001100000001110000
0001111000000111100000001100000000110000001111111000001100100000110000000011000000001100000001110000
0001111000000111100000001100000000110000001111111000001100100000110000000011000000001100000001110000
0001111000000111100000001100000000110000001111111000001100100000110000000011000000001100000001110000
0001111000000111100000001100000000110000001111111000001100100000110000000011000000001100000001110000
0001111000000111100000001100000000110000001111111000001100100000110000000011000000001100000001110000
0001111000000111100000001100000000110000001111111000001100100000110000000011000000001100000001110000
0001111000000111100000001100000000110000001111111000001100100000110000000011000000001100000001110000
0001111000000111100000001100000000110000001111111000001100100000110000000011000000001100000001110000
0001111000000111100000001100000000110000001111111000001100100000110000000011000000001100000001110000
0001111000000111100000001100000000110000001111111000001100100000110000000011000000001100000001110000
0001111000000111100000001100000000110000001111111000001100100000110000000011000000001100000001110000
0001111000000111100000001100000000110000001111111000001100100000110000000011000000001100000001110000
0001111000000111100000001100000000110000001111111000001100100000110000000011000000001100000001110000
0001111000000111100000001100000000110000001111111000001100100000110000000011000000001100000001110000
0001111000000111100000001100000000110000001111111000001100100000110000000011000000001100000000110000

0001111100000011000000001100000000110000001111110000011100100000110000000011000000001100000001100100
0001111100000011000000001100000000110000001111110000011100100000110000000011000000001100000001100100
0001111100000011000000001100000000110000001111110000011100100000110000000011000000001100000001100100
0001111100000011000000001100000000110000001111110000011100100000110000000011000000001100000001100100
0001111100000011000000001100000000110000001111110000011100100000110000000011000000001100000001100100
0001111100000011000000001100000000110000001111110000011100100000110000000011000000001100000001100100
0001111100000011000000001100000000110000001111110000011100100000110000000011000000001100000001110100
0001111100000011000000001100000000110000001111110000011100100000110000000011000000001100000001110100
0001111100000011000000001100000000110000001111110000011100100000110000000011000000001100000001110100
0001111100000011000000001100000000110000001111110000011100100000110000000011000000001100000001110100
0001111100000011000000001100000000110000001111110000011100100000110000000011000000001100000001110100
0001111100000011100000001100000000110000001111110000011100100000110000000011000000001100000001110100
0001111100000011100000001100000000110000001111110000011100100000110000000011000000001100000001110100
0001111100000011100000001100000000110000001111110000011100100000110000000011000000001100000001110100
0001111100000011100000001100000000110000001111110000011100100000110000000011000000001100000001110100
0001111100000011100000001100000000110000001111110000011100100000110000000011000000001100000001110100
0001111100000011100000001100000000110000001111110000001100100000110000000011000000001100000001110100
0001111100000011100000001100000000110000001111110000001100100000110000000011000000001100000001110100
0001111100000011100000001100000000110000001111110000001100100000110000000011000000001100000001110100
0001111100000011100000001100000000110000001111110000001100100000110000000011000000001100000001110100
0001111100000011100000001100000000110000001111110000001100100000110000000011000000001100000001110100
0001111100000011100000001100000000110000001111110000001100100000110000000011000000001100000001110100
0001111100000011100000001100000000110000001111110000001100100000110000000011000000001100000001110100
0001111100000011100000001100000000110000001111110000001100100000110000000011000000001100000001110100
0001111100000011100000001100000000110000001111110000001100100000110000000011000000001100000001110100
0001111100000011100000001100000000110000001111110000001100100000110000000011000000001100000001110100
0001111100000011100000001100000000110000001111110000001100100000110000000011000000001100000001110100
0001111100000011100000001100000000110000001111110000001100100000110000000011000000001100000001110100
0001111100000011100000001100000000110000001111110000001100100000110000000011000000001100000001110100
0001111100000011100000001100000000110000001111110000001100100000110000000011000000001100000001110100
0001111100000011100000001100000000110000001111110000001100100000110000000011000000001100000001110100
0001111100000011100000001100000000110000001111110000001100100000110000000011000000001100000001110100
0001111100000011100000001100000000110000001111110000001100100000110000000011000000001100000001110100
0001111100000011100000001100000000110000001111110000001100100000110000000011000000001100000001110100
0001111100000011100000001100000000110000001111110000001100100000110000000011000000001100000001110100
0001111100000011100000001100000000110000001111110000001100100000110000000011000000001100000000110100
0001111100000011100000001100000000110000001111110000001100100000110000000011000000001100000000110100
0001111100000011100000001100000000110000001111110000001100100000110000000011000000001100000000110100
0001111100000011100000001100000000110000001111110000001100100000110000000011000000001100000000110100
0001111100000011100000001100000000110000001111110000001100100000110000000011000000001100000000110100
0001111100000011100000001100000000110000001111110000001100100000110000000011000000001100000000110100
0001111100000011100000001100000000110000001111110000001100100000110000000011000000001100000000110100
0001111100000011100000001100000000110000001111110000001100100000110000000011000000001100000000110100
0001111100000011100000001100000000110000001111110000001100100000110000000011000000001100000000110100
0001111100000011100000001100000000110000001111110000001100100000110000000011000000001100000000110100
0001111100000011100000001100000000110000001111110000001100100000110000000011000000001100000000110000
0001111100000011100000001100000000110000001111110000001100100000110000000011000000001100000000110000
0001111100000011100000001100000000110000001111110000001100100000110000000011000000001100000000110000
0001111100000011100000001100000000110000001111110000001100100000110000000011000000001100000000110000
0001111100000011100000001100000000110000001111110000001100100000110000000011000000001100000000110000
0001111100000011100000001100000000110000001111110000001100100000110000000011000000001100000000110000
0001111100000011100000001100000000110000001111110000001100100000110000000011000000001100000000110000
0001111100000011100000001100000000110000001111110000001100100000110000000011000000001100000000110000
0001111100000011100000001100000000110000001111110000001100100000110000000011000000001100000000110000
0001111100000011100000001100000000110000001111110000001100100000110000000011000000001100000000110000
0001111100000011100000001100000000110000001111110000001100100000110000000011000000001100000000110000
0001111100000011100000001100000000110000001111110000001100100000110000000011000000001100000000110000
0001111100000011100000001100000000110000001111110000001100100000110000000011000000001100000000110000
0001111100000011100000001100000000110000001111110000001100100000110000000011000000001100000000110000
0001111100000011100000001100000000110000001111110000001100100000110000000011000000001100000000110000
0001111100000011100000001100000000110000001111110000001100100000110000000011000000001100000000110000
0001111100000011100000001100000000110000001111110000001100100000110000000011000000001100000000110000
0001111100000011100000001100000000110000001111110000001100100000110000000011000000001100000000110000
0001111100000011100000001100000000110000001111110000001100100000110000000011000000001100000000110000
0001111100000011100000001100000000110000001111110000001100100000110000000011000000001100000000110000
0001111100000011100000001100000000110000001111110000001100100000110000000011000000001100000000110000
0001111100000011100000001100000000110000001111110000001100100000110000000011000000001100000000110000
0001111100000011100000001100000000110000001111110000001100100000110000000011000000001100000000110000
0001111100000011100000001100000000110000001111110000001100100000110000000011000000001100000000110000
0001111100000011100000001100000000110000001111110000001100100000110000000011000000001100000000110000
0001111100000011100000001100000000110000001111110000001100100000110000000011000000001100000000110000
0001111100000011100000001100000000110000001111110000001100100000110000000011000000001100000000110000
0001111100000011100000001100000000110000001111110000001100100000110000000011000000001100000000110000
0001111100000011100000001100000000110000001111110000001100100000110000000011000000001100000000110000
0001111100000011100000001100000000110000001111110000001100100000110000000011000000001100000000110000
0001111100000011100000001100000000110000001111110000001100100000110000000011000000001100000000110000
0001111100000011100000001100000000110000001111110000001100100000110000000011000000001100000000110000
0001111100000011100000001100000000110000001111110000001100100000110000000011000000001100000000110000
0001111100000011100000001100000000110000001111110000001100100000110000000011000000001100000000110000
0001111100000011100000001100000000110000001111110000001100100000110000000011000000001100000000110000
0001111100000011100000001100000000110000001111110000001100100000110000000011000000001100000000110000
0001111100000011100000001100000000110000001111110000001100100000110000000011000000001100000000110000
0001111100000011100000001100000000110000001111110000001100100000110000000011000000001100000000110000
0001111100000011100000001100000000110000001111110000001100100000110000000011000000001100000000110000
0001111100000011100000001100000000110000001111110000001100100000110000000011000000001100000000110000
0001111100000011100000001100000000110000001111110000001100100000110000000011000000001100000000110000
0001111100000011100000001100000000110000001111110000001100100000110000000011000000001100000000110000
0001111100000011100000001100000000110000001111110000001100100000110000000011000000001100000000110000
0001111100000011100000001100000000110000001111110000001100100000110000000011000000001100000000110000
0001111100000011100000001100000000110000001111110000001100100000110000000011000000001100000000110000
0001111100000011100000001100000000110000001111110000001100100000110000000011000000001100000000110000
0001111100000011100000001100000000110000001111110000001100100000110000000011000000001100000000110000
0001111100000011100000001100000000110000001111110000001100100000110000000011000000001100000000110000
0001111100000011100000001100000000110000001111110000001100100000110000000011000000001100000000110000
0001111100000011100000001100000000110000001111110000001100100000110000000011000000001100000000110000
0001111100000011100000001100000000110000001111110000001100100000110000000011000000001100000000110000
0001111100000011100000001100000000110000001111110000001100100000110000000011000000001100000000110000
0001111100000011100000001100000000110000001111110000001100100000110000000011000000001100000000110000
0001111100000011100000001100000000110000001111110000001100100000110000000011000000001100000000110000
0001111100000011100000001100000000110000001111110000001100100000110000000011000000001100000000110000
0001111100000011100000001100000000110000001111110000001100100000110000000011000000001100000000110000
0001111100000011100000001100000000110000001111110000001100100000110000000011000000001100000000110000
0001111100000011100000001100000000110000001111110000001100100000110000000011000000001100000000110000
0001111100000011100000001100000000110000001111110000001100100000110000000011000000001100000000110000
0001111100000011100000001100000000110000001111110000001100100000110000000011000000001100000000110000
0001111100000011100000001100000000110000001111110000001100100000110000000011000000001100000000110000
0001111000000011100000001100000000110000001111110000001100100000110000000011000000001100000000110000
0001111000000011100000001100000000110000001111110000001100100000110000000011000000001100000000110000
0001111000000011100000001100000000110000001111110000001100100000110000000011000000001100000000110000
0001111000000011100000001100000000110000001111110000001100100000110000000011000000001100000000110000
0001111000000011100000001100000000110000001111110000001100100000110000000011000000001100000000110000
0001111000000011100000001100000000110000001111110000001100100000110000000011000000001100000000110000
0001111000000011100000001100000000110000001111110000001100100000110000000011000000001100000000110000
0001111000000011100000001100000000110000001111110000001100100000110000000011000000001100000000110000
0001111000000011100000001100000000110000001111110000001100100000110000000011000000001100000000110000
0001111000000011100000001100000000110000001111110000001100100000110000000011000000001100000000110000
0001111000000011100000001100000000110000001111110000001100100000110000000011000000001100000000110000
0001111000000011100000001100000000110000001111110000001100100000110000000011000000001100000000110000
0001111000000011100000001100000000110000001111110000001100100000110000000011000000001100000000110000
0001111000000011100000001100000000110000001111110000001100100000110000000011000000001100000000110000
0001111000000011100000001100000000110000001111110000001100100000110000000011000000001100000000110000
0001111000000011100000001100000000110000001111110000001100100000110000000011000000001100000000110000
0001111000000011100000001100000000110000001111110000001100100000110000000011000000001100000000110000
0001111000000011100000001100000000110000001111110000001100100000110000000011000000001100000000110000
0001111000000011100000001100000000110000001111110000001100100000110000000011000000001100000000110000
0001111000000011100000001100000000110000001111110000001100100000110000000011000000001100000000110000
0001111000000011100000001100000000110000001111110000001100100000110000000011000000001100000000110000
0001111000000011100000001100000000110000001111110000001100100000110000000011000000001100000000110000
0001111000000011100000001100000000110000001111110000001100100000110000000011000000001100000000110000
0001111000000011100000001100000000110000001111110000001100100000110000000011000000001100000000110000
0001111000000111100000001100000000110000001111110000001100100000110000000011000000001100000000110000
0001111000000111100000001100000000110000001111110000001100100000110000000011000000001100000000110000
0001111000000111100000001100000000110000001111110000001100100000110000000011000000001100000000110000
0001111000000111100000001100000000110000001111110000001100100000110000000011000000001100000000110000
0001111000000111100000001100000000110000001111110000001100100000110000000011000000001100000000110000
0001111000000111100000001100000000110000001111110000001100100000110000000011000000001100000000110000
0001111000000111100000001100000000110000001111110000001100100000110000000011000000001100000000110000
0001111000000111100000001100000000110000001111110000001100100000110000000011000000001100000000110000
0001111000000111100000001100000000110000001111110000001100100000110000000011000000001100000000110000
0001111000000111100000001100000000110000001111110000001100100000110000000011000000001100000000110000
0001111000000111100000001100000000110000001111110000001100100000110000000011000000001100000000110000
0001111000000111100000001100000000110000001111110000001100100000110000000011000000001100000000110000
0001111000000111100000001100000000110000001111110000001100100000110000000011000000001100000000110000
0001111000000111100000001100000000110000001111110000001100100000110000000011000000001100000000110000
0001111000000111100000001100000000110000001111110000001100100000110000000011000000001100000000110000
0001111000000111100000001100000000110000001111110000001100100000110000000011000000001100000000110000
0001111000000111100000001100000000110000001111110000001100100000110000000011000000001100000000110000
0001111000000111100000001100000000110000001111110000001100100000110000000011000000001100000000110000
0001111000000111100000001100000000110000001111110000001100100000110000000011000000001100000000110000
0001111000000111100000001100000000110000001111110000001100100000110000000011000000001100000000110000
0001111000000111100000001100000000110000001111110000001100100000110000000011000000001100000000110000
0001111000000111100000001100000000110000001111110000001100100000110000000011000000001100000000110000
0001111000000111100000001100000000110000001111110000001100100000110000000011000000001100000000110000
0001111000000111100000001100000000110000001111110000001100100000110000000011000000001100000000110000
0001111000000111100000001100000000110000001111110000001100100000110000000011000000001100000000110000
0001111000000111100000001100000000110000001111111000001100100000110000000011000000001100000000110000

0001111100000011000000001100000000110000001111110000011100100000110000000011000000001100000001100100
0001111100000011000000001100000000110000001111110000011100100000110000000011000000001100000001100100
0001111100000011000000001100000000110000001111110000011100100000110000000011000000001100000001100100
0001111100000011000000001100000000110000001111110000011100100000110000000011000000001100000001100100
0001111100000011000000001100000000110000001111110000011100100000110000000011000000001100000001100100
0001111100000011000000001100000000110000001111110000011100100000110000000011000000001100000001100100
0001111100000011000000001100000000110000001111110000011100100000110000000011000000001100000001100100
0001111100000111000000001100000000110000001111110000011100100000110000000011000000001100000001100100
0001111100000111000000001100000000110000001111110000011100100000110000000011000000001100000001100100
0001111100000111000000001100000000110000001111110000011100100000110000000011000000001100000001100100
0001111100000111000000001100000000110000001111111000011100100000110000000011000000001100000001100100
0001111100000111000000001100000000110000001111111000011100100000110000000011000000001100000001100100
0001111100000111000000001100000000110000001111111000011100100000110000000011000000001100000001100100
0001111100000111000000001100000000110000001111111000011100100000110000000011000000001100000001100100
0001111100000111000000001100000000110000001111111000011100100000110000000011000000001100000001100100
0001111100000111000000001100000000110000001111111000011100100000110000000011000000001100000001100100
0001111100000111000000001100000000110000001111111000011100100000110000000011000000001100000001100100
0001111100000111000000001100000000110000001111111000011100100000110000000011000000001100000001100100
0001111100000111000000001100000000110000001111111000011100100000110000000011000000001100000001100100
0001111100000111000000001100000000110000001111111000011100100000110000000011000000001100000001100100
0001111100000111000000001100000000110000001111111000011100100000110000000011000000001100000001100100
0001111100000111000000001100000000110000001111111000001100100000110000000011000000001100000001100100
0001111100000111000000001100000000110000001111111000001100100000110000000011000000001100000001100100
0001111100000111000000001100000000110000001111111000001100100000110000000011000000001100000001100100
0001111100000111000000001100000000110000001111111000001100100000110000000011000000001100000001100100
0001111100000111000000001100000000110000001111111000001100100000110000000011000000001100000001100100
0001111100000111000000001100000000110000001111111000001100100000110000000011000000001100000001100100
0001111100000111000000001100000000110000001111111000001100100000110000000011000000001100000001100100
0001111100000111000000001100000000110000001111111000001100100000110000000011000000001100000001100100
0001111100000111000000001100000000110000001111111000001100100000110000000011000000001100000001100100
0001111100000111000000001100000000110000001111111000001100100000110000000011000000001100000001100100
0001111100000111000000001100000000110000001111111000001100100000110000000011000000001100000001100100
0001111100000111000000001100000000110000001111111000001100100000110000000011000000001100000001100100
0001111100000111000000001100000000110000001111111000001100100000110000000011000000001100000001100100
0001111100000111000000001100000000110000001111111000001100100000110000000011000000001100000001100100
0001111100000111000000001100000000110000001111111000001100100000110000000011000000001100000001100100
0001111100000111000000001100000000110000001111111000001100100000110000000011000000001100000001100100
0001111100000111000000001100000000110000001111111000001100100000110000000011000000001100000001100100
0001111100000111000000001100000000110000001111111000001100100000110000000011000000001100000001100000
0001111100000111000000001100000000110000001111111000001100100000110000000011000000001100000001100000
0001111100000111000000001100000000110000001111111000001100100000110000000011000000001100000001100000
0001111100000111000000001100000000110000001111111000001100100000110000000011000000001100000001100000
0001111000000111000000001100000000110000001111111000001100100000110000000011000000001100000001100000
0001111000000111000000001100000000110000001111111000001100100000110000000011000000001100000001100000
0001111000000111000000001100000000110000001111111000001100100000110000000011000000001100000001100000
0001111000000111000000001100000000110000001111111000001100100000110000000011000000001100000001100000
0001111000000111000000001100000000110000001111111000001100100000110000000011000000001100000001100000
0001111000000111000000001100000000110000001111111000001100100000110000000011000000001100000001100000
0001111000000111000000001100000000110000001111111000001100100000110000000011000000001100000001100000
0001111000000111000000001100000000110000001111111000001100100000110000000011000000001100000001100000
0001111000000111000000001100000000110000001111111000001100100000110000000011000000001100000001100000
0001111000000111000000001100000000110000001111111000001100100000110000000011000000001100000001100000
0001111000000111000000001100000000110000001111111000001100100000110000000011000000001100000001100000
0001111000000111000000001100000000110000001111111000001100100000110000000011000000001100000001100000
0001111000000111000000001100000000110000001111111000001100100000110000000011000000001100000001100000
0001111000000111000000001100000000110000001111111000001100100000110000000011000000001100000001100000
0001111000000111000000001100000000110000001111111000001100100000110000000011000000001100000001100000
0001111000000111000000001100000000110000001111111000001100100000110000000011000000001100000001100000
0001111000000111000000001100000000110000001111111000001100100000110000000011000000001100000001100000
0001111000000111000000001100000000110000001111111000001100100000110000000011000000001100000001100000
0001111000000111000000001100000000110000001111111000001100100000110000000011000000001100000001100000
0001111000000111000000001100000000110000001111111000001100100000110000000011000000001100000001100000
0001111000000111000000001100000000110000001111111000001100100000110000000011000000001100000001100000
0001111000000111000000001100000000110000001111111000001100100000110000000011000000001100000001100000
0001111000000111000000001100000000110000001111111000001100100000110000000011000000001100000001100000
0001111000000111000000001100000000110000001111111000001100100000110000000011000000001100000001100000
0001111000000111000000001100000000110000001111111000001100100000110000000011000000001100000001100000
0001111000000111000000001100000000110000001111111000001100100000110000000011000000001100000001100000
0001111000000111000000001100000000110000001111111000001100100000110000000011000000001100000001100000
0001111000000111000000001100000000110000001111111000001100100000110000000011000000001100000001100000
0001111000000111000000001100000000110000001111111000001100100000110000000011000000001100000001100000
0001111000000111000000001100000000110000001111111000001100100000110000000011000000001100000001100000
0001111000000111000000001100000000110000001111111000001100100000110000000011000000001100000001100000
0001111000000111000000001100000000110000001111111000001100100000110000000011000000001100000001110000
0001111000000111000000001100000000110000001111111000001100100000110000000011000000001100000001110000
0001111000000111000000001100000000110000001111111000001100100000110000000011000000001100000001110000
0001111000000111000000001100000000110000001111111000001100100000110000000011000000001100000001110000
0001111000000111000000001100000000110000001111111000001100100000110000000011000000001100000001110000
0001111000000111000000001100000000110000001111111000001100100000110000000011000000001100000001110000
0001111000000111000000001100000000110000001111111000001100100000110000000011000000001100000001110000
0001111000000111000000001100000000110000001111111000001100100000110000000011000000001100000001110000
0001111000000111000000001100000000110000001111111000001100100000110000000011000000001100000001110000
0001111000000111000000001100000000110000001111111000001100100000110000000011000000001100000001110000
0001111000000111000000001100000000110000001111111000001100100000110000000011000000001100000001110000
0001111000000111000000001100000000110000001111111000001100100000110000000011000000001100000001110000
0001111000000111000000001100000000110000001111111000001100100000110000000011000000001100000001110000
0001111000000111000000001100000000110000001111111000001100100000110000000011000000001100000001110000
0001111000000111000000001100000000110000001111111000001100100000110000000011000000001100000001110000
0001111000000111000000001100000000110000001111111000001100100000110000000011000000001100000001110000
0001111000000111000000001100000000110000001111111000001100100000110000000011000000001100000001110000
0001111000000111000000001100000000110000001111111000001100100000110000000011000000001100000001110000
0001111000000111000000001100000000110000001111111000001100100000110000000011000000001100000001110000
0001111000000111000000001100000000110000001111111000001100100000110000000011000000001100000001110000
0001111000000111000000001100000000110000001111111000001100100000110000000011000000001100000001110000
0001111000000111000000001100000000110000001111111000001100100000110000000011000000001100000001110000
0001111000000111000000001100000000110000001111111000001100100000110000000011000000001100000001110000
0001111000000111000000001100000000110000001111111000001100100000110000000011000000001100000001110000
0001111000000111000000001100000000110000001111111000001100100000110000000011000000001100000001110000
0001111000000111000000001100000000110000001111111000001100100000110000000011000000001100000001110000
0001111000000111000000001100000000110000001111111000001100100000110000000011000000001100000001110000
0001111000000111000000001100000000110000001111111000001100100000110000000011000000001100000001110000
0001111000000111000000001100000000110000001111111000001100100000110000000011000000001100000001110000
0001111000000111000000001100000000110000001111111000001100100000110000000011000000001100000001110000
0001111000000111100000001100000000110000001111111000001100100000110000000011000000001100000001110000
0001111000000111100000001100000000110000001111111000001100100000110000000011000000001100000001110000
0001111000000111100000001100000000110000001111111000001100100000110000000011000000001100000001110000
0001111000000111100000001100000000110000001111111000001100100000110000000011000000001100000001110000
0001111000000111100000001100000000110000001111111000001100100000110000000011000000001100000001110000
0001111000000111100000001100000000110000001111111000001100100000110000000011000000001100000001110000
0001111000000111100000001100000000110000001111111000001100100000110000000011000000001100000001110000
0001111000000111100000001100000000110000001111111000001100100000110000000011000000001100000001110000
0001111000000111100000001100000000110000001111111000001100100000110000000011000000001100000001110000
0001111000000111100000001100000000110000001111111000001100100000110000000011000000001100000001110000
0001111000000111100000001100000000110000001111111000001100100000110000000011000000001100000001110000
0001111000000111100000001100000000110000001111111000001100100000110000000011000000001100000001110000
0001111000000111100000001100000000110000001111111000001100100000110000000011000000001100000001110000
0001111000000111100000001100000000110000001111111000001100100000110000000011000000001100000001110000
0001111000000111100000001100000000110000001111111000001100100000110000000011000000001100000001110000
0001111000000111100000001100000000110000001111111000001100100000110000000011000000001100000001110000
0001111000000111100000001100000000110000001111111000001100100000110000000011000000001100000001110000
0001111000000111100000001100000000110000001111111000001100100000110000000011000000001100000001110000
0001111000000111100000001100000000110000001111111000001100100000110000000011000000001100000001110000
0001111000000111100000001100000000110000001111111000001100100000110000000011000000001100000001110000
0001111000000111100000001100000000110000001111111000001100100000110000000011000000001100000001110000
0001111000000111100000001100000000110000001111111000001100100000110000000011000000001100000001110000
0001111000000111100000001100000000110000001111111000001100100000110000000011000000001100000001110000
0001111000000111100000001100000000110000001111111000001100100000110000000011000000001100000001110000
0001111000000111100000001100000000110000001111111000001100100000110000000011000000001100000001110000
0001111000000111100000001100000000110000001111111000001100100000110000000011000000001100000001110000
